#include "model.h"
const unsigned char g_model[] = {
  0x1c, 0x00, 0x00, 0x00, 0x54, 0x46, 0x4c, 0x33, 0x14, 0x00, 0x20, 0x00,
  0x04, 0x00, 0x08, 0x00, 0x0c, 0x00, 0x10, 0x00, 0x14, 0x00, 0x00, 0x00,
  0x18, 0x00, 0x1c, 0x00, 0x14, 0x00, 0x00, 0x00, 0x03, 0x00, 0x00, 0x00,
  0x4c, 0x00, 0x00, 0x00, 0x40, 0x00, 0x00, 0x00, 0xa4, 0x00, 0x00, 0x00,
  0x0c, 0x00, 0x00, 0x00, 0x4c, 0x00, 0x00, 0x00, 0x44, 0x00, 0x00, 0x00,
  0x0a, 0x00, 0x00, 0x00, 0xec, 0x11, 0x00, 0x00, 0xe8, 0x11, 0x00, 0x00,
  0xcc, 0x10, 0x00, 0x00, 0x50, 0x10, 0x00, 0x00, 0x20, 0x04, 0x00, 0x00,
  0x34, 0x03, 0x00, 0x00, 0xd4, 0x11, 0x00, 0x00, 0xd0, 0x11, 0x00, 0x00,
  0xcc, 0x11, 0x00, 0x00, 0x50, 0x00, 0x00, 0x00, 0x01, 0x00, 0x00, 0x00,
  0x88, 0x00, 0x00, 0x00, 0x02, 0x00, 0x00, 0x00, 0x84, 0x02, 0x00, 0x00,
  0x24, 0x01, 0x00, 0x00, 0x00, 0x00, 0x00, 0x00, 0x01, 0x00, 0x00, 0x00,
  0x0c, 0x00, 0x00, 0x00, 0x08, 0x00, 0x0c, 0x00, 0x04, 0x00, 0x08, 0x00,
  0x08, 0x00, 0x00, 0x00, 0x08, 0x00, 0x00, 0x00, 0x09, 0x00, 0x00, 0x00,
  0x13, 0x00, 0x00, 0x00, 0x6d, 0x69, 0x6e, 0x5f, 0x72, 0x75, 0x6e, 0x74,
  0x69, 0x6d, 0x65, 0x5f, 0x76, 0x65, 0x72, 0x73, 0x69, 0x6f, 0x6e, 0x00,
  0xa6, 0xef, 0xff, 0xff, 0x04, 0x00, 0x00, 0x00, 0x10, 0x00, 0x00, 0x00,
  0x31, 0x2e, 0x35, 0x2e, 0x30, 0x00, 0x00, 0x00, 0x00, 0x00, 0x00, 0x00,
  0x00, 0x00, 0x00, 0x00, 0x0f, 0x00, 0x00, 0x00, 0x4d, 0x4c, 0x49, 0x52,
  0x20, 0x43, 0x6f, 0x6e, 0x76, 0x65, 0x72, 0x74, 0x65, 0x64, 0x2e, 0x00,
  0x00, 0x00, 0x0e, 0x00, 0x18, 0x00, 0x04, 0x00, 0x08, 0x00, 0x0c, 0x00,
  0x10, 0x00, 0x14, 0x00, 0x0e, 0x00, 0x00, 0x00, 0x40, 0x00, 0x00, 0x00,
  0x34, 0x00, 0x00, 0x00, 0x28, 0x00, 0x00, 0x00, 0x14, 0x00, 0x00, 0x00,
  0x04, 0x00, 0x00, 0x00, 0x04, 0x00, 0x00, 0x00, 0x6d, 0x61, 0x69, 0x6e,
  0x00, 0x00, 0x00, 0x00, 0x03, 0x00, 0x00, 0x00, 0x94, 0x01, 0x00, 0x00,
  0xe0, 0x00, 0x00, 0x00, 0x48, 0x00, 0x00, 0x00, 0x01, 0x00, 0x00, 0x00,
  0x07, 0x00, 0x00, 0x00, 0x01, 0x00, 0x00, 0x00, 0x00, 0x00, 0x00, 0x00,
  0x08, 0x00, 0x00, 0x00, 0xac, 0x10, 0x00, 0x00, 0x3c, 0x10, 0x00, 0x00,
  0x6c, 0x0f, 0x00, 0x00, 0x14, 0x0f, 0x00, 0x00, 0xe0, 0x02, 0x00, 0x00,
  0xb8, 0x01, 0x00, 0x00, 0xdc, 0x00, 0x00, 0x00, 0x54, 0x00, 0x00, 0x00,
  0x00, 0x00, 0x0e, 0x00, 0x18, 0x00, 0x08, 0x00, 0x0c, 0x00, 0x10, 0x00,
  0x07, 0x00, 0x14, 0x00, 0x0e, 0x00, 0x00, 0x00, 0x00, 0x00, 0x00, 0x09,
  0x01, 0x00, 0x00, 0x00, 0x1c, 0x00, 0x00, 0x00, 0x10, 0x00, 0x00, 0x00,
  0x04, 0x00, 0x00, 0x00, 0x76, 0xf0, 0xff, 0xff, 0x00, 0x00, 0x80, 0x3f,
  0x01, 0x00, 0x00, 0x00, 0x07, 0x00, 0x00, 0x00, 0x01, 0x00, 0x00, 0x00,
  0x06, 0x00, 0x00, 0x00, 0xb0, 0xfe, 0xff, 0xff, 0x19, 0x00, 0x00, 0x00,
  0x00, 0x00, 0x00, 0x19, 0x01, 0x00, 0x00, 0x00, 0xd8, 0xef, 0xff, 0xff,
  0x30, 0x00, 0x00, 0x00, 0x08, 0x00, 0x00, 0x00, 0x18, 0x00, 0x00, 0x00,
  0x30, 0x00, 0x00, 0x00, 0x04, 0x00, 0x00, 0x00, 0x02, 0x00, 0x00, 0x00,
  0xff, 0xff, 0xff, 0xff, 0x02, 0x00, 0x00, 0x00, 0x08, 0x00, 0x00, 0x00,
  0x49, 0x64, 0x65, 0x6e, 0x74, 0x69, 0x74, 0x79, 0x00, 0x00, 0x00, 0x00,
  0x02, 0x00, 0x00, 0x00, 0x01, 0x00, 0x00, 0x00, 0x02, 0x00, 0x00, 0x00,
  0xe8, 0xf0, 0xff, 0xff, 0x00, 0x00, 0x0e, 0x00, 0x14, 0x00, 0x00, 0x00,
  0x08, 0x00, 0x0c, 0x00, 0x07, 0x00, 0x10, 0x00, 0x0e, 0x00, 0x00, 0x00,
  0x00, 0x00, 0x00, 0x08, 0x18, 0x00, 0x00, 0x00, 0x0c, 0x00, 0x00, 0x00,
  0x04, 0x00, 0x00, 0x00, 0xec, 0xef, 0xff, 0xff, 0x01, 0x00, 0x00, 0x00,
  0x06, 0x00, 0x00, 0x00, 0x03, 0x00, 0x00, 0x00, 0x05, 0x00, 0x00, 0x00,
  0x04, 0x00, 0x00, 0x00, 0x02, 0x00, 0x00, 0x00, 0x5c, 0xf0, 0xff, 0xff,
  0x5c, 0x00, 0x00, 0x00, 0x07, 0x00, 0x00, 0x00, 0x18, 0x00, 0x00, 0x00,
  0x5c, 0x00, 0x00, 0x00, 0x04, 0x00, 0x00, 0x00, 0x02, 0x00, 0x00, 0x00,
  0xff, 0xff, 0xff, 0xff, 0x02, 0x00, 0x00, 0x00, 0x34, 0x00, 0x00, 0x00,
  0x73, 0x65, 0x71, 0x75, 0x65, 0x6e, 0x74, 0x69, 0x61, 0x6c, 0x2f, 0x64,
  0x65, 0x6e, 0x73, 0x65, 0x5f, 0x31, 0x2f, 0x4d, 0x61, 0x74, 0x4d, 0x75,
  0x6c, 0x3b, 0x73, 0x65, 0x71, 0x75, 0x65, 0x6e, 0x74, 0x69, 0x61, 0x6c,
  0x2f, 0x64, 0x65, 0x6e, 0x73, 0x65, 0x5f, 0x31, 0x2f, 0x42, 0x69, 0x61,
  0x73, 0x41, 0x64, 0x64, 0x00, 0x00, 0x00, 0x00, 0x02, 0x00, 0x00, 0x00,
  0x01, 0x00, 0x00, 0x00, 0x02, 0x00, 0x00, 0x00, 0x98, 0xf1, 0xff, 0xff,
  0x00, 0x00, 0x0e, 0x00, 0x16, 0x00, 0x00, 0x00, 0x08, 0x00, 0x0c, 0x00,
  0x07, 0x00, 0x10, 0x00, 0x0e, 0x00, 0x00, 0x00, 0x00, 0x00, 0x00, 0x08,
  0x24, 0x00, 0x00, 0x00, 0x18, 0x00, 0x00, 0x00, 0x0c, 0x00, 0x00, 0x00,
  0x00, 0x00, 0x06, 0x00, 0x08, 0x00, 0x07, 0x00, 0x06, 0x00, 0x00, 0x00,
  0x00, 0x00, 0x00, 0x01, 0x01, 0x00, 0x00, 0x00, 0x05, 0x00, 0x00, 0x00,
  0x03, 0x00, 0x00, 0x00, 0x00, 0x00, 0x00, 0x00, 0x03, 0x00, 0x00, 0x00,
  0x01, 0x00, 0x00, 0x00, 0x0c, 0x00, 0x10, 0x00, 0x0b, 0x00, 0x00, 0x00,
  0x0c, 0x00, 0x04, 0x00, 0x0c, 0x00, 0x00, 0x00, 0x09, 0x00, 0x00, 0x00,
  0x00, 0x00, 0x00, 0x09, 0x01, 0x00, 0x00, 0x00, 0x34, 0xf1, 0xff, 0xff,
  0x6c, 0x00, 0x00, 0x00, 0x06, 0x00, 0x00, 0x00, 0x18, 0x00, 0x00, 0x00,
  0x6c, 0x00, 0x00, 0x00, 0x04, 0x00, 0x00, 0x00, 0x02, 0x00, 0x00, 0x00,
  0xff, 0xff, 0xff, 0xff, 0x13, 0x00, 0x00, 0x00, 0x46, 0x00, 0x00, 0x00,
  0x73, 0x65, 0x71, 0x75, 0x65, 0x6e, 0x74, 0x69, 0x61, 0x6c, 0x2f, 0x64,
  0x65, 0x6e, 0x73, 0x65, 0x2f, 0x4d, 0x61, 0x74, 0x4d, 0x75, 0x6c, 0x3b,
  0x73, 0x65, 0x71, 0x75, 0x65, 0x6e, 0x74, 0x69, 0x61, 0x6c, 0x2f, 0x64,
  0x65, 0x6e, 0x73, 0x65, 0x2f, 0x52, 0x65, 0x6c, 0x75, 0x3b, 0x73, 0x65,
  0x71, 0x75, 0x65, 0x6e, 0x74, 0x69, 0x61, 0x6c, 0x2f, 0x64, 0x65, 0x6e,
  0x73, 0x65, 0x2f, 0x42, 0x69, 0x61, 0x73, 0x41, 0x64, 0x64, 0x00, 0x00,
  0x02, 0x00, 0x00, 0x00, 0x01, 0x00, 0x00, 0x00, 0x13, 0x00, 0x00, 0x00,
  0x5c, 0xf1, 0xff, 0xff, 0x7a, 0xf2, 0xff, 0xff, 0x04, 0x00, 0x00, 0x00,
  0x98, 0x00, 0x00, 0x00, 0x19, 0xe9, 0x46, 0xbe, 0xe3, 0x6a, 0x36, 0x3e,
  0x5c, 0x89, 0x23, 0x3e, 0x87, 0x53, 0xbe, 0x3e, 0x3e, 0xaf, 0x00, 0xbf,
  0x9e, 0x34, 0x0c, 0xbf, 0x0d, 0x8e, 0xbc, 0x3e, 0xe1, 0xa0, 0xc7, 0x3e,
  0x2d, 0xdc, 0x08, 0xbc, 0xcc, 0xe6, 0x19, 0xbf, 0x97, 0x0c, 0xf3, 0x3d,
  0xf7, 0x01, 0x87, 0x3e, 0xca, 0x37, 0x46, 0x3e, 0xd6, 0x8e, 0xf4, 0xbd,
  0x27, 0x2e, 0x04, 0xbf, 0x46, 0xd6, 0x89, 0xbe, 0xd0, 0x0c, 0x9f, 0x3c,
  0x2b, 0x75, 0xba, 0xbe, 0x22, 0x52, 0x80, 0xbe, 0xcc, 0x7f, 0xb2, 0x3e,
  0x8a, 0x3d, 0x64, 0x3c, 0x14, 0x79, 0x68, 0xbe, 0x22, 0x80, 0x34, 0xbd,
  0x14, 0x26, 0x1b, 0x3f, 0x45, 0x28, 0x84, 0x3e, 0xbc, 0x2e, 0xc1, 0x3d,
  0x3c, 0x31, 0xfa, 0xbe, 0xd4, 0x9a, 0x8a, 0xbd, 0x38, 0x4e, 0x13, 0x3f,
  0x27, 0x72, 0x1f, 0xbd, 0x1f, 0xde, 0x5a, 0xbe, 0x0d, 0x4a, 0xb9, 0xbe,
  0x1b, 0xb5, 0x80, 0xbe, 0x67, 0x09, 0x61, 0xbe, 0xc2, 0xea, 0xe9, 0xbe,
  0xf2, 0x66, 0xd7, 0xbe, 0xbf, 0xfe, 0xd6, 0xbe, 0xf5, 0x5f, 0x7d, 0xbe,
  0xbe, 0xf2, 0xff, 0xff, 0x30, 0x00, 0x00, 0x00, 0x05, 0x00, 0x00, 0x00,
  0x08, 0x00, 0x00, 0x00, 0x30, 0x00, 0x00, 0x00, 0x19, 0x00, 0x00, 0x00,
  0x73, 0x65, 0x71, 0x75, 0x65, 0x6e, 0x74, 0x69, 0x61, 0x6c, 0x2f, 0x64,
  0x65, 0x6e, 0x73, 0x65, 0x5f, 0x31, 0x2f, 0x4d, 0x61, 0x74, 0x4d, 0x75,
  0x6c, 0x00, 0x00, 0x00, 0x02, 0x00, 0x00, 0x00, 0x02, 0x00, 0x00, 0x00,
  0x13, 0x00, 0x00, 0x00, 0x44, 0xf2, 0xff, 0xff, 0x62, 0xf3, 0xff, 0xff,
  0x04, 0x00, 0x00, 0x00, 0xe0, 0x0b, 0x00, 0x00, 0x0d, 0x70, 0x93, 0x3e,
  0x0b, 0x4a, 0x1f, 0xbe, 0x93, 0xe7, 0xbf, 0x3e, 0x72, 0x7b, 0x2b, 0x3e,
  0xf3, 0x37, 0xfd, 0xbd, 0x88, 0x90, 0x82, 0xbe, 0xc4, 0xb1, 0xbe, 0xbd,
  0x19, 0x57, 0xf2, 0x3d, 0x7b, 0x22, 0x8f, 0x3e, 0x96, 0x1a, 0x14, 0x3e,
  0x2f, 0x58, 0x36, 0x3d, 0x11, 0x84, 0x66, 0xbe, 0x38, 0x22, 0x20, 0xbc,
  0x92, 0x12, 0x6b, 0xbd, 0x16, 0xc4, 0xf0, 0x3c, 0xeb, 0xf9, 0x36, 0x3d,
  0x91, 0x8c, 0x88, 0x3e, 0x34, 0xd7, 0xa1, 0xbd, 0x10, 0xe0, 0x1e, 0x3e,
  0x07, 0xf9, 0xe0, 0x3d, 0x64, 0xc7, 0x5c, 0xbd, 0xb4, 0x14, 0xb2, 0xbd,
  0xf0, 0x7e, 0x82, 0xbc, 0xc7, 0x60, 0x6b, 0x3d, 0x89, 0x38, 0xa6, 0x3e,
  0x90, 0x28, 0x80, 0x3e, 0xc2, 0x2a, 0x00, 0xbe, 0x97, 0xa6, 0x9d, 0xbe,
  0x1b, 0x3e, 0x4f, 0xbe, 0x62, 0xe9, 0x1c, 0xbe, 0xdb, 0x70, 0x1e, 0x3e,
  0x8e, 0x02, 0x05, 0xbe, 0xfb, 0x8e, 0x28, 0x3e, 0x5f, 0xfe, 0x9b, 0xbe,
  0xdf, 0xa5, 0x8d, 0xbe, 0x65, 0xb5, 0x55, 0xbe, 0x65, 0x46, 0x54, 0x3e,
  0x68, 0xa2, 0xb5, 0xbe, 0xa8, 0x6e, 0xd6, 0x3d, 0x68, 0x07, 0xd7, 0x3d,
  0x8e, 0x1d, 0x89, 0xbe, 0xb3, 0x7c, 0x40, 0x3e, 0xba, 0x65, 0x55, 0x3e,
  0xee, 0x1f, 0x68, 0x3d, 0x34, 0x60, 0x15, 0x3e, 0xe1, 0x37, 0x15, 0x3e,
  0xc1, 0x18, 0x3f, 0xbe, 0x87, 0x21, 0x9b, 0xbd, 0xa4, 0xed, 0x93, 0xbe,
  0xfa, 0x69, 0x7c, 0xbe, 0x3c, 0x10, 0xa2, 0xbe, 0x28, 0x2e, 0x4d, 0xbd,
  0x6a, 0x8e, 0xa3, 0xbd, 0xba, 0x9c, 0x7a, 0xbe, 0x25, 0x79, 0xaf, 0xbe,
  0x04, 0x5a, 0xe7, 0x3a, 0xba, 0xb6, 0xb9, 0xbd, 0x2e, 0x83, 0x6e, 0x3d,
  0x88, 0xa9, 0x30, 0xbe, 0xed, 0x27, 0xf2, 0xbd, 0x86, 0x78, 0x4d, 0x3e,
  0xb2, 0x46, 0xa8, 0x3d, 0xa3, 0x03, 0x82, 0x3e, 0x0d, 0x7e, 0x14, 0x3e,
  0xec, 0x53, 0x3e, 0xbe, 0xcf, 0x66, 0xdd, 0xbd, 0x59, 0x43, 0x70, 0xbe,
  0x1b, 0xe1, 0x3b, 0xbd, 0x2f, 0x93, 0xe6, 0x3c, 0x0c, 0xa6, 0xd9, 0xbd,
  0x9c, 0xb3, 0x25, 0xbe, 0x15, 0xdb, 0x9b, 0xbd, 0xe6, 0x48, 0x96, 0xbe,
  0x26, 0xea, 0x32, 0xbe, 0xb5, 0x9e, 0xa1, 0x3d, 0x14, 0x13, 0x88, 0xbd,
  0xeb, 0x1a, 0xf2, 0x3d, 0x3f, 0x9b, 0x81, 0x3d, 0xee, 0xa4, 0x8e, 0x3d,
  0x01, 0x83, 0xad, 0x3d, 0xb7, 0xf1, 0x23, 0xbe, 0x50, 0x5e, 0x54, 0xbc,
  0xf0, 0x21, 0x42, 0x3e, 0xaf, 0x6c, 0xf7, 0x3d, 0xe5, 0xc7, 0x2e, 0xbe,
  0xbf, 0xb7, 0x9f, 0x3c, 0x16, 0x9e, 0x96, 0xbd, 0x23, 0xec, 0x88, 0x3e,
  0x7d, 0x47, 0xee, 0x3c, 0x5d, 0xe0, 0x85, 0x3d, 0xe6, 0x5f, 0x89, 0x3e,
  0x73, 0xe1, 0xc6, 0x3d, 0x5e, 0x49, 0x55, 0x3e, 0x30, 0xb0, 0x17, 0xbe,
  0x5b, 0x10, 0x39, 0x3e, 0x80, 0x69, 0x2c, 0xbe, 0x9b, 0x3f, 0x84, 0xbe,
  0x02, 0x9e, 0x87, 0xbe, 0x84, 0x04, 0xff, 0xbb, 0x43, 0x72, 0xaa, 0xbe,
  0xdf, 0x25, 0x7b, 0x3e, 0xbe, 0x83, 0xe8, 0xbd, 0x96, 0xe4, 0x82, 0xbe,
  0x0e, 0x3a, 0x9b, 0xbe, 0x7b, 0xba, 0xfa, 0xba, 0xaa, 0x7b, 0xf7, 0xbc,
  0x7f, 0x47, 0x07, 0x3e, 0x82, 0x71, 0x90, 0x3e, 0x4f, 0xc9, 0xde, 0xbd,
  0x40, 0x6e, 0xde, 0x3c, 0x77, 0x0e, 0x6c, 0xbd, 0x2d, 0xb3, 0x11, 0xbe,
  0xad, 0x2a, 0xfb, 0x3d, 0xc2, 0xbc, 0xf5, 0xbb, 0xc3, 0xbb, 0xc0, 0xbe,
  0x8a, 0xf5, 0x46, 0x3e, 0xed, 0xd4, 0x4b, 0xbe, 0x9a, 0x36, 0xaf, 0xbe,
  0x09, 0x6c, 0x57, 0x3e, 0x92, 0xb6, 0x35, 0x3e, 0x60, 0xa3, 0x8a, 0x3d,
  0xae, 0x5b, 0x54, 0x3e, 0x08, 0xb1, 0x03, 0x3e, 0x8f, 0x5a, 0x38, 0xbc,
  0xad, 0x77, 0x91, 0xbd, 0x13, 0x06, 0xff, 0x3d, 0xfa, 0xa1, 0xc3, 0xbd,
  0x90, 0xf4, 0x70, 0xbe, 0xea, 0xb1, 0xb0, 0xbc, 0x0b, 0x10, 0x6f, 0xbd,
  0x1f, 0xf4, 0xc8, 0xbd, 0x87, 0x97, 0x39, 0x3e, 0x5a, 0xd6, 0xbd, 0x3d,
  0x5a, 0x55, 0x9d, 0x3d, 0x19, 0x95, 0xe5, 0x3d, 0x0d, 0xb4, 0x5f, 0x3e,
  0xd5, 0x95, 0xa8, 0x3e, 0x6e, 0x01, 0x41, 0x3e, 0x06, 0xb5, 0x99, 0x3c,
  0x5c, 0xa2, 0x8f, 0xbe, 0x75, 0xf8, 0x82, 0x3e, 0x17, 0x27, 0x73, 0xbe,
  0xae, 0xad, 0x29, 0x3e, 0x04, 0x30, 0x8a, 0x3e, 0x89, 0x63, 0xa2, 0xbc,
  0xb8, 0xaa, 0x69, 0xbd, 0x29, 0x1a, 0x8e, 0xbe, 0xbe, 0xc7, 0xc7, 0x3d,
  0x89, 0xf6, 0x26, 0x3d, 0x10, 0x7a, 0x47, 0x3d, 0x88, 0x11, 0x77, 0x3d,
  0x3a, 0xca, 0x6f, 0xbe, 0x97, 0x03, 0x72, 0x3e, 0xdb, 0xe2, 0x1e, 0x3e,
  0x9a, 0x08, 0xcd, 0x3d, 0x82, 0x2f, 0x95, 0x3e, 0x8d, 0xdf, 0xe8, 0xbd,
  0x0b, 0x77, 0xd3, 0x3d, 0x5f, 0xea, 0xab, 0xbc, 0x28, 0x1b, 0x25, 0xbe,
  0x2e, 0x3c, 0x8f, 0xbd, 0xb3, 0x55, 0xaa, 0xbe, 0xeb, 0x5c, 0x73, 0x3e,
  0x3d, 0x39, 0x72, 0x3d, 0x17, 0xe6, 0xb6, 0x3c, 0xf2, 0x0d, 0x9c, 0xbe,
  0x8a, 0x87, 0xca, 0x3c, 0x01, 0x14, 0xce, 0xbd, 0x85, 0xcf, 0x6b, 0x3e,
  0xc9, 0x45, 0xd7, 0xbd, 0x84, 0x59, 0x9f, 0x3e, 0xc9, 0xfe, 0x13, 0xbe,
  0x7e, 0x79, 0xe2, 0x3d, 0x98, 0xcf, 0x6b, 0x3e, 0xb5, 0x1e, 0x89, 0x3d,
  0x9c, 0x7b, 0xc6, 0xbe, 0x29, 0x9c, 0xa5, 0x3e, 0xa0, 0x00, 0xf1, 0x3d,
  0x8c, 0x92, 0x33, 0xbe, 0x12, 0x58, 0xb6, 0xbe, 0xb9, 0x89, 0x4a, 0x3e,
  0xa5, 0x32, 0xbe, 0xbd, 0x71, 0x54, 0x34, 0x3e, 0x0d, 0xc1, 0x8d, 0x3e,
  0x24, 0x6c, 0x8c, 0xbe, 0x10, 0xdf, 0x9f, 0xbe, 0xf4, 0x57, 0x78, 0xbe,
  0x60, 0x20, 0xe5, 0xb8, 0xd8, 0x97, 0xbc, 0x3e, 0xc3, 0x48, 0xf0, 0x3d,
  0x59, 0x09, 0x81, 0x3e, 0x71, 0xe3, 0x09, 0xbe, 0xa7, 0xbd, 0xea, 0xbd,
  0x0c, 0x57, 0x69, 0x3c, 0x7a, 0x5f, 0x22, 0xbd, 0xb4, 0x9a, 0xd4, 0x3d,
  0xe4, 0x22, 0x1a, 0xbd, 0x58, 0xd4, 0x1e, 0xbd, 0x2b, 0xe9, 0xcf, 0x3d,
  0x03, 0xcf, 0x3f, 0x3e, 0x24, 0x33, 0x6e, 0xbe, 0x86, 0x2e, 0xb1, 0x3e,
  0x6f, 0xb7, 0xb5, 0xbd, 0x12, 0x98, 0x89, 0x3e, 0x1f, 0x1a, 0x99, 0xbe,
  0xf0, 0xb4, 0x50, 0xbd, 0xfd, 0x8f, 0x12, 0x3d, 0xa3, 0x6c, 0x36, 0xbe,
  0x95, 0xdb, 0x0b, 0xbd, 0xca, 0x4b, 0x4a, 0xbe, 0x24, 0x07, 0xa3, 0x3e,
  0x0a, 0x68, 0x49, 0x3e, 0x15, 0xdb, 0x92, 0x3c, 0x6b, 0xb9, 0x7b, 0xbe,
  0x3f, 0x08, 0x01, 0xbe, 0x76, 0x00, 0x89, 0xbe, 0xde, 0x9e, 0x9b, 0xbe,
  0xf2, 0xcc, 0x52, 0xbe, 0x2d, 0xe2, 0x75, 0xbd, 0x6a, 0x9c, 0x32, 0x3e,
  0x2a, 0x6c, 0x0b, 0x3e, 0x4e, 0x37, 0xa4, 0xbe, 0xb1, 0xd4, 0x1d, 0x3e,
  0xca, 0xe2, 0x83, 0xbe, 0x09, 0x74, 0x8d, 0xbe, 0x4b, 0x20, 0x8a, 0xbe,
  0xc5, 0xb9, 0x20, 0x3e, 0x56, 0x4d, 0xa8, 0xbd, 0x75, 0x48, 0x24, 0xbe,
  0x4d, 0xe7, 0x9f, 0xbe, 0x64, 0xfe, 0x29, 0x3e, 0x68, 0x33, 0xa5, 0x3e,
  0xce, 0xf6, 0x64, 0xbe, 0xda, 0x13, 0xc6, 0x3e, 0xb8, 0x86, 0xbf, 0x3e,
  0xee, 0xc6, 0x38, 0xbe, 0xdd, 0xbd, 0x8f, 0x3e, 0xc3, 0x1e, 0x25, 0xbe,
  0x50, 0xd3, 0x26, 0xbe, 0x98, 0x6d, 0x29, 0x3d, 0xb4, 0x99, 0x23, 0xbd,
  0x30, 0xf8, 0xff, 0x3b, 0xf8, 0x8d, 0xb0, 0xbd, 0x42, 0xf1, 0x09, 0x3e,
  0x9d, 0xfb, 0x7b, 0x3e, 0xf7, 0x01, 0x6c, 0xbd, 0xe1, 0xde, 0x82, 0xbe,
  0x39, 0x8c, 0x8d, 0xbe, 0xfb, 0xed, 0x4f, 0xbe, 0xdd, 0x3b, 0x67, 0xbe,
  0x62, 0xb8, 0xdd, 0x3c, 0x07, 0x5c, 0x39, 0xbe, 0x51, 0xe0, 0x38, 0xbe,
  0xc0, 0xfe, 0xdf, 0xbd, 0x66, 0xac, 0x0d, 0xbe, 0x24, 0xea, 0x64, 0x3e,
  0x0c, 0xdc, 0x27, 0xbe, 0x6d, 0xcd, 0x9c, 0xbe, 0x8f, 0xd6, 0x84, 0x3d,
  0x0b, 0xab, 0x8f, 0xbe, 0xd3, 0xd4, 0xa3, 0x3d, 0xd1, 0x0f, 0x34, 0xbe,
  0x47, 0x5d, 0x6a, 0xbe, 0x25, 0xfc, 0x05, 0xbe, 0xd2, 0x11, 0x64, 0x3e,
  0xad, 0x1d, 0x6d, 0xbd, 0x16, 0x46, 0x05, 0x3e, 0x6b, 0x2d, 0x8d, 0xbe,
  0xc2, 0x08, 0x5a, 0x3e, 0x98, 0xbb, 0x37, 0xbd, 0x6d, 0xa9, 0x83, 0x3b,
  0x0a, 0xd6, 0x99, 0xbe, 0x8b, 0xc2, 0x0f, 0xbe, 0x41, 0x79, 0x00, 0x3e,
  0xdc, 0x20, 0xbb, 0xbe, 0x75, 0x7f, 0x3e, 0xbd, 0x74, 0xe8, 0x14, 0xbe,
  0xaa, 0x38, 0x57, 0x3e, 0xb1, 0xd5, 0x2e, 0xbe, 0x91, 0x37, 0x70, 0xbd,
  0x90, 0x04, 0x1c, 0x3c, 0x2d, 0x2d, 0x06, 0xbe, 0x97, 0xd4, 0xe1, 0x3d,
  0x32, 0x2f, 0xd5, 0xbd, 0x3d, 0x8a, 0x4e, 0xbd, 0x82, 0xe4, 0x4d, 0xbd,
  0xf9, 0xbf, 0x17, 0xbe, 0xdc, 0x2b, 0x04, 0xbe, 0xe4, 0x67, 0xcb, 0x3d,
  0x86, 0x92, 0x01, 0xbe, 0x62, 0x2c, 0xd8, 0x3d, 0x5e, 0x47, 0x90, 0x3e,
  0xca, 0xf3, 0x10, 0xbe, 0xeb, 0x65, 0x82, 0xbe, 0x78, 0xe3, 0xff, 0xbd,
  0x49, 0x84, 0x35, 0x3e, 0x4d, 0x5f, 0x7a, 0xbe, 0xf0, 0xac, 0x7b, 0x3e,
  0x1e, 0x04, 0x2e, 0x3e, 0x9b, 0x4f, 0xaa, 0xbe, 0x39, 0x46, 0xd7, 0xbd,
  0xcb, 0xef, 0x65, 0x3d, 0xdb, 0x4f, 0x20, 0x3d, 0x30, 0x6f, 0x8d, 0xbd,
  0x79, 0xf4, 0xb0, 0xbe, 0xdf, 0xd9, 0x0e, 0xbe, 0x54, 0x79, 0x66, 0x3e,
  0x0d, 0x78, 0x3c, 0x3d, 0x86, 0xad, 0x8d, 0x3e, 0xeb, 0xde, 0x7b, 0xbe,
  0x56, 0x29, 0x08, 0x3d, 0x53, 0x49, 0x02, 0xbe, 0x07, 0x82, 0xa1, 0xbe,
  0xea, 0x6b, 0x64, 0x3e, 0xdc, 0x83, 0x4d, 0x3e, 0xbf, 0x72, 0xa6, 0x3d,
  0x71, 0xbd, 0x7e, 0x3e, 0x15, 0x27, 0x12, 0xbe, 0xb4, 0xf7, 0xd3, 0x3d,
  0xe2, 0x97, 0x7e, 0x3e, 0xbb, 0x6a, 0x37, 0x3e, 0xff, 0xc9, 0x38, 0x3e,
  0xe6, 0xe5, 0x0d, 0x3e, 0x1f, 0xc9, 0xdd, 0x3d, 0x05, 0xe4, 0x5d, 0x3e,
  0x70, 0x66, 0xec, 0xbd, 0x9a, 0x6e, 0xba, 0xbc, 0xcb, 0xe8, 0xe5, 0xbd,
  0x8e, 0xc8, 0x18, 0x3d, 0x29, 0x72, 0xe4, 0xbd, 0x1e, 0x06, 0x09, 0xbd,
  0x7c, 0x05, 0x20, 0x3e, 0x9d, 0xcf, 0x30, 0x3e, 0xba, 0x1e, 0x46, 0x3d,
  0xb4, 0x75, 0x8b, 0xbd, 0xc3, 0x90, 0x33, 0x3e, 0x58, 0xed, 0x82, 0xbe,
  0xbe, 0xd0, 0x13, 0x3e, 0x4e, 0x0a, 0xb8, 0x3e, 0x7b, 0xec, 0x7f, 0x3d,
  0xcf, 0xda, 0xd3, 0x3b, 0x75, 0x98, 0x41, 0x3e, 0x61, 0x35, 0x9a, 0x3e,
  0x8e, 0x17, 0xbb, 0xbd, 0x55, 0xa6, 0x42, 0xbe, 0xd1, 0x15, 0xc8, 0x3d,
  0x35, 0xea, 0x13, 0xbe, 0x57, 0x87, 0xe1, 0xba, 0x3e, 0x17, 0x3a, 0xbe,
  0xc5, 0x60, 0xbe, 0xbd, 0x5c, 0x36, 0x8f, 0x3e, 0xc7, 0xac, 0x90, 0x3d,
  0x29, 0xca, 0xe6, 0x3b, 0xd1, 0xf7, 0x5c, 0xbe, 0xad, 0xea, 0x70, 0x3e,
  0xc4, 0x93, 0xa8, 0x3c, 0x9b, 0x44, 0x95, 0xbd, 0xaf, 0xb9, 0x1f, 0x3e,
  0xdb, 0x9c, 0x5e, 0xbe, 0x76, 0x72, 0x69, 0x3e, 0x83, 0xd8, 0xba, 0x3e,
  0x72, 0xda, 0x15, 0x3e, 0xa2, 0x90, 0x1a, 0xbd, 0xc5, 0x6c, 0x97, 0x3e,
  0x3e, 0x46, 0x54, 0x3e, 0xa9, 0x47, 0x92, 0xbe, 0x88, 0x8a, 0xf1, 0xbc,
  0xba, 0xac, 0x1b, 0xbe, 0xa6, 0x5a, 0xbc, 0x3e, 0xcf, 0x59, 0x31, 0xbe,
  0x4d, 0x38, 0xe7, 0x3d, 0xfd, 0x22, 0xb3, 0x3c, 0x82, 0x21, 0x8a, 0xbe,
  0xdb, 0x30, 0x86, 0x3e, 0x66, 0x4d, 0x9b, 0xbe, 0xec, 0x9b, 0x1e, 0x3e,
  0xef, 0x24, 0x51, 0x3e, 0x05, 0x2a, 0x11, 0xbd, 0x1d, 0xfd, 0x84, 0xbe,
  0x49, 0x67, 0x4c, 0x3e, 0x14, 0x1a, 0xbd, 0x3d, 0x45, 0xb6, 0x51, 0x3e,
  0x5a, 0x9c, 0x08, 0xbe, 0x72, 0xfd, 0x7a, 0x3e, 0x1e, 0x63, 0x22, 0xbe,
  0x7c, 0x9c, 0x3c, 0xbe, 0x5c, 0xde, 0x3c, 0xbe, 0x8f, 0x7a, 0x94, 0xbb,
  0x04, 0x20, 0xaf, 0xbd, 0x46, 0x9f, 0x49, 0x3e, 0x3d, 0xaf, 0x82, 0xbd,
  0xf5, 0x22, 0x8c, 0x3e, 0xc4, 0x54, 0x63, 0x3e, 0x48, 0x77, 0x0e, 0x3e,
  0x9a, 0x27, 0x10, 0xbe, 0x66, 0xdb, 0xa2, 0x3e, 0x0a, 0x5e, 0x39, 0xbe,
  0xa6, 0xec, 0xac, 0x3e, 0x28, 0x1b, 0x1d, 0xbd, 0x37, 0x7d, 0x6a, 0xbc,
  0x50, 0x14, 0x5e, 0xbe, 0xa3, 0x5a, 0x82, 0xbe, 0xe3, 0xed, 0x7b, 0x3e,
  0xeb, 0xce, 0x45, 0x3b, 0x46, 0x72, 0x19, 0xbd, 0xd4, 0x0c, 0x83, 0xbe,
  0x35, 0x34, 0xec, 0xbd, 0x51, 0x24, 0x87, 0xbe, 0x1c, 0xd0, 0x47, 0xbd,
  0xd6, 0x11, 0xbd, 0x3e, 0x62, 0x92, 0x61, 0x3e, 0x14, 0xc1, 0x9a, 0x3c,
  0x53, 0x9f, 0xa2, 0xbe, 0x4a, 0x37, 0x2b, 0x3e, 0x56, 0xb6, 0x14, 0xbe,
  0xc3, 0xdd, 0x51, 0x3e, 0x9e, 0x40, 0xbf, 0x3d, 0xa7, 0xd3, 0xcf, 0xbd,
  0x44, 0x5c, 0x5d, 0x3e, 0x68, 0x2f, 0x26, 0xbe, 0xcc, 0x6f, 0x66, 0x3e,
  0xfa, 0xc8, 0x2a, 0xbe, 0x99, 0x79, 0x6f, 0xbd, 0x45, 0x30, 0x21, 0xbd,
  0xa5, 0x30, 0x82, 0xbe, 0x6d, 0x9c, 0x9f, 0x3d, 0x7c, 0x32, 0x8f, 0xbd,
  0x38, 0xc4, 0x83, 0x3b, 0x35, 0x61, 0x46, 0xbe, 0x9d, 0xd9, 0xc8, 0xbc,
  0x04, 0x41, 0x86, 0xbe, 0x8b, 0x32, 0xec, 0x3c, 0x61, 0x34, 0x48, 0xbe,
  0xbd, 0x52, 0x23, 0x3e, 0x8b, 0x65, 0x90, 0x3d, 0xc5, 0x9d, 0x5a, 0xbe,
  0xe1, 0x11, 0x6c, 0xbd, 0x0f, 0x94, 0x91, 0xbd, 0xe1, 0x9c, 0x2a, 0xbd,
  0xb5, 0x7a, 0x93, 0x3e, 0x5b, 0x11, 0x4d, 0x3d, 0xb0, 0x78, 0x12, 0x3e,
  0x52, 0xa4, 0x5a, 0x3e, 0x0b, 0x8e, 0x34, 0x3e, 0x63, 0xcf, 0xda, 0xbd,
  0xdb, 0x68, 0x46, 0xbe, 0x1d, 0x60, 0x92, 0x3e, 0x21, 0x07, 0x80, 0xbe,
  0x2d, 0x3d, 0xcd, 0xbd, 0x6b, 0xd7, 0x4a, 0x3e, 0x1a, 0x3a, 0x61, 0x3e,
  0xf8, 0x19, 0xa5, 0x3e, 0x0a, 0x33, 0x36, 0xbd, 0xfb, 0x2e, 0xc0, 0xbd,
  0x18, 0x1f, 0x04, 0xbe, 0x0b, 0x6b, 0x75, 0x3e, 0x37, 0x3f, 0x48, 0x3e,
  0xa2, 0xb8, 0x58, 0xbe, 0x8c, 0x67, 0x21, 0xbe, 0xc3, 0x00, 0x45, 0x3e,
  0xfc, 0x98, 0x25, 0xbe, 0xfd, 0x92, 0x5a, 0x3c, 0xe1, 0xf7, 0x87, 0x3d,
  0xb0, 0x7c, 0xd5, 0x3d, 0x7c, 0xd9, 0x74, 0x3e, 0xed, 0x7a, 0x04, 0xbe,
  0x3e, 0xaf, 0x83, 0x3e, 0x83, 0xf3, 0x6a, 0xbe, 0xe0, 0x56, 0x6d, 0xbd,
  0xfa, 0xf4, 0x3e, 0x3e, 0x6a, 0x22, 0x81, 0xbe, 0x88, 0x11, 0xb7, 0xbd,
  0xf3, 0x97, 0x6f, 0x3d, 0xa4, 0x7a, 0xfb, 0x3d, 0x99, 0x7a, 0xa2, 0x3e,
  0xf8, 0x5c, 0xa0, 0x3e, 0x11, 0x39, 0x00, 0x3d, 0x00, 0x94, 0x0a, 0x3e,
  0x73, 0x55, 0x10, 0xbe, 0xf6, 0x1c, 0x9e, 0x3e, 0x96, 0x8c, 0x9a, 0xbe,
  0xd2, 0x36, 0x33, 0x3e, 0x27, 0xd5, 0x4f, 0xbe, 0x23, 0x82, 0xbe, 0x3d,
  0x75, 0xf3, 0x3c, 0x3d, 0xc6, 0x60, 0x73, 0xbd, 0xac, 0xfa, 0xc4, 0x3d,
  0x5b, 0x2b, 0x3a, 0xbe, 0x00, 0x08, 0x09, 0x3e, 0xb4, 0xbc, 0x60, 0xbd,
  0x82, 0x06, 0xbc, 0x3e, 0x38, 0x69, 0x1c, 0x3d, 0x85, 0x6a, 0xf7, 0xbc,
  0x9d, 0x65, 0x56, 0x3e, 0x0e, 0x7f, 0xaa, 0xbb, 0x2e, 0xf2, 0xba, 0x3d,
  0x19, 0xe1, 0x9b, 0xbd, 0x76, 0x58, 0x98, 0x3d, 0x38, 0x4f, 0x17, 0xbd,
  0xaf, 0x36, 0xc1, 0xbd, 0xa3, 0x59, 0xcc, 0x3d, 0x09, 0x19, 0x66, 0xbe,
  0x1e, 0x73, 0x04, 0xbe, 0x33, 0xf9, 0xa6, 0x3d, 0x36, 0x0d, 0x07, 0x3e,
  0x5e, 0xb0, 0x3b, 0xbe, 0x4b, 0x1a, 0x33, 0x3e, 0xc9, 0x90, 0xb4, 0xbe,
  0x86, 0xd6, 0x1e, 0x3e, 0x08, 0xb0, 0x7a, 0xbd, 0x39, 0x37, 0x38, 0x3e,
  0x91, 0xc4, 0x3e, 0x3e, 0x79, 0xec, 0x8d, 0xbe, 0xcd, 0x3b, 0x57, 0xbe,
  0x66, 0x42, 0x08, 0x3e, 0x8a, 0xe6, 0x6f, 0xbe, 0x5d, 0xa6, 0x69, 0xbe,
  0xbb, 0x3c, 0x92, 0x3d, 0x2a, 0xc2, 0x81, 0x3e, 0x0b, 0x63, 0x7e, 0x3e,
  0x56, 0xec, 0x74, 0x3d, 0xe6, 0xfd, 0x4a, 0x3d, 0x83, 0xec, 0xc6, 0xbd,
  0x24, 0x57, 0xd2, 0x3d, 0x82, 0x6a, 0x94, 0x3e, 0x19, 0x17, 0x9b, 0xbd,
  0xd8, 0xaf, 0x96, 0x3e, 0xf3, 0x54, 0xda, 0x3d, 0x5a, 0x68, 0x3c, 0xbe,
  0xd5, 0x6a, 0x40, 0x3e, 0xb7, 0x84, 0x20, 0xbc, 0x12, 0xa7, 0x43, 0x3d,
  0xb8, 0x4c, 0xa7, 0xbd, 0xb3, 0xc0, 0x6d, 0x3e, 0x58, 0xd2, 0x80, 0xbd,
  0xd3, 0x03, 0xab, 0xbd, 0xb3, 0x94, 0xe6, 0xbd, 0x57, 0x62, 0x46, 0xbe,
  0x74, 0x54, 0x33, 0x3e, 0xe7, 0xc0, 0x21, 0xbe, 0x52, 0x02, 0xa1, 0xbe,
  0xc0, 0x58, 0x75, 0xbd, 0x34, 0xac, 0x64, 0x3e, 0x35, 0xcc, 0x1e, 0x3d,
  0x3d, 0x2a, 0x9c, 0xbb, 0x62, 0xb4, 0x8d, 0xbc, 0xb4, 0xe6, 0x74, 0xbe,
  0x56, 0x77, 0x2a, 0xbe, 0xae, 0xd9, 0x81, 0xbe, 0x36, 0xa1, 0x62, 0x3e,
  0x6f, 0x56, 0xcc, 0xbd, 0xaf, 0xfd, 0x63, 0xbe, 0x7b, 0x2e, 0x82, 0x3e,
  0xad, 0xa2, 0x28, 0x3e, 0xbe, 0xdb, 0xb2, 0xbe, 0x25, 0x1c, 0x5d, 0x3e,
  0x98, 0x6a, 0x91, 0xbd, 0x61, 0x15, 0x9a, 0xbd, 0x1d, 0x7f, 0x6f, 0x3e,
  0xb3, 0x42, 0x41, 0x3e, 0x75, 0xbf, 0x06, 0xbd, 0x24, 0x5e, 0x2a, 0x3d,
  0x3a, 0x09, 0x6a, 0xbd, 0x49, 0x0d, 0x18, 0x3e, 0x00, 0x7c, 0x83, 0xbe,
  0x3a, 0x2c, 0x18, 0xbd, 0xf0, 0x6f, 0x34, 0x3e, 0xbd, 0x34, 0x07, 0x3e,
  0xfd, 0xa2, 0x8d, 0xbe, 0x6d, 0xdf, 0xbd, 0x3c, 0xa6, 0x67, 0xe4, 0x3d,
  0x08, 0x4f, 0x7c, 0xbe, 0x5c, 0x0d, 0x98, 0xbd, 0x88, 0x68, 0xb3, 0xbd,
  0x90, 0xb5, 0x06, 0x3e, 0x8f, 0xfc, 0xa7, 0xbe, 0x1c, 0xb4, 0xa6, 0x3d,
  0xf8, 0x3b, 0x3b, 0x3e, 0x67, 0xe2, 0xa7, 0xbd, 0x02, 0x9d, 0x44, 0x3d,
  0xc7, 0x51, 0x80, 0x3e, 0x6a, 0xef, 0xee, 0xbd, 0x68, 0xc1, 0xfc, 0xbd,
  0x55, 0xca, 0x78, 0x3e, 0xe0, 0x2a, 0x81, 0x3d, 0x8b, 0xf3, 0x68, 0x3e,
  0xae, 0x1d, 0x35, 0xbd, 0x3d, 0xbb, 0x7a, 0x3e, 0xa6, 0xf7, 0xa8, 0x3e,
  0xb3, 0x7d, 0x7a, 0x3e, 0xbc, 0x51, 0x8f, 0xbe, 0x6b, 0x32, 0xbc, 0x3c,
  0xe9, 0x35, 0x45, 0x3e, 0xfd, 0x7e, 0xd3, 0xbe, 0x5f, 0x21, 0xa6, 0x3c,
  0xe1, 0xdb, 0x13, 0x3e, 0x9d, 0x71, 0xd7, 0xbc, 0xd2, 0xd5, 0x70, 0xbe,
  0x5e, 0x3d, 0x84, 0xbe, 0x3e, 0x0d, 0x31, 0x3e, 0xc1, 0xcb, 0x9e, 0x3e,
  0xf5, 0x9e, 0x80, 0x3e, 0x90, 0x52, 0x77, 0xbe, 0xfc, 0x11, 0xb4, 0xbc,
  0x9e, 0xd2, 0x42, 0xbe, 0x5a, 0xdc, 0x74, 0xbe, 0xbe, 0xa1, 0x1d, 0xbe,
  0xf2, 0x04, 0x02, 0x3e, 0x06, 0x74, 0xb0, 0x3d, 0xa7, 0x02, 0x00, 0x3e,
  0x56, 0xe2, 0x90, 0xbe, 0x31, 0x23, 0xdf, 0xbd, 0x84, 0x7b, 0x18, 0xbe,
  0xc7, 0xdf, 0x6c, 0xbe, 0xae, 0x17, 0x7f, 0xbe, 0x70, 0x33, 0xcc, 0x3d,
  0x12, 0xbf, 0x84, 0xbd, 0xf0, 0x7d, 0xa7, 0x3d, 0xce, 0x22, 0x6a, 0xbd,
  0x1e, 0x1f, 0x30, 0x3e, 0xa9, 0x2f, 0xb3, 0xbe, 0x1e, 0xf5, 0x33, 0xbd,
  0x87, 0x36, 0x4a, 0x3e, 0x04, 0x60, 0x17, 0x3e, 0x41, 0x25, 0x2b, 0xbe,
  0x3a, 0x8a, 0xcf, 0x3d, 0xf8, 0x5e, 0xbb, 0xbe, 0xcc, 0xd3, 0xed, 0x3d,
  0xcd, 0xe0, 0x20, 0x3e, 0x5e, 0xcf, 0xd3, 0x3d, 0xc8, 0xa7, 0x0c, 0xbe,
  0xb0, 0x7a, 0x1b, 0xbe, 0x3b, 0x0c, 0x9f, 0xbe, 0x14, 0x78, 0x4c, 0x3e,
  0x30, 0x13, 0x9b, 0xbe, 0x4c, 0xf9, 0x2d, 0x3e, 0x18, 0x40, 0x0e, 0x3d,
  0x79, 0xa1, 0xe5, 0xbd, 0x23, 0xf6, 0x06, 0xbd, 0x9d, 0x4d, 0x91, 0x3e,
  0x76, 0xd0, 0x3f, 0x3d, 0x72, 0xd2, 0x57, 0x3c, 0x00, 0x90, 0x2c, 0x3d,
  0x48, 0xac, 0x3f, 0x3e, 0xde, 0x95, 0xdc, 0x3d, 0x24, 0x93, 0x0d, 0x3e,
  0x61, 0x4d, 0x2e, 0xbe, 0xca, 0x09, 0x20, 0x3c, 0x06, 0xff, 0x37, 0xbe,
  0xe6, 0x42, 0x02, 0xbe, 0xdd, 0x29, 0x99, 0x3e, 0xd8, 0xf0, 0x21, 0x3e,
  0xa0, 0xa0, 0x38, 0x3c, 0xc6, 0x92, 0xa0, 0x3d, 0x9b, 0x81, 0xa2, 0x3e,
  0xa1, 0x47, 0x35, 0x3e, 0x0b, 0x2c, 0xc0, 0x3d, 0x52, 0xf1, 0xa3, 0x3e,
  0xaf, 0xd8, 0x90, 0x3e, 0x07, 0x40, 0x91, 0xbe, 0xec, 0x53, 0xeb, 0xbc,
  0x5d, 0x4a, 0x84, 0x3d, 0xae, 0xd7, 0x0c, 0x3e, 0xeb, 0x6a, 0xa4, 0xbd,
  0x68, 0x71, 0x42, 0xbd, 0x96, 0x8b, 0x28, 0xbe, 0x5d, 0x80, 0x92, 0x3c,
  0xa4, 0x60, 0x9e, 0xbd, 0xbe, 0x2c, 0xf8, 0x3d, 0x9c, 0x4b, 0x5f, 0x3e,
  0xec, 0xc7, 0x9a, 0x3d, 0x86, 0x1a, 0x99, 0x3c, 0x24, 0x4c, 0xde, 0x3d,
  0xc9, 0x4a, 0x64, 0xbe, 0x68, 0xf7, 0x8e, 0x3d, 0x80, 0x86, 0xcd, 0x3e,
  0xd5, 0xc4, 0xe6, 0xbc, 0x31, 0x4e, 0xb3, 0xbb, 0x39, 0xbd, 0x6d, 0x3d,
  0x88, 0xbf, 0xbf, 0xbd, 0x5c, 0x3a, 0x67, 0x3e, 0x66, 0x2d, 0x0f, 0xbe,
  0x56, 0xb2, 0x80, 0xbe, 0xab, 0xb2, 0x0a, 0xbe, 0xc8, 0xf6, 0x4e, 0xbe,
  0xea, 0x4f, 0xdf, 0x3d, 0x7a, 0xe4, 0x24, 0x3e, 0x81, 0x99, 0x8b, 0xbd,
  0xdb, 0x3a, 0x4a, 0x3e, 0x3f, 0xa2, 0x35, 0xbe, 0x01, 0xa1, 0x1f, 0x3d,
  0xd6, 0x8f, 0xac, 0x3e, 0x9c, 0xc4, 0x64, 0xbe, 0xc5, 0x11, 0xc5, 0xbc,
  0x46, 0x3f, 0x65, 0x3e, 0xf0, 0x41, 0xad, 0x3d, 0x7a, 0xae, 0x68, 0xbe,
  0x47, 0x15, 0x33, 0xbe, 0x70, 0x4e, 0x91, 0xbe, 0x63, 0x1e, 0x10, 0x3e,
  0xb4, 0xc7, 0x62, 0xbe, 0x8f, 0xab, 0xe8, 0xbd, 0x05, 0xfb, 0x68, 0xbe,
  0xe2, 0x4f, 0x1a, 0x3d, 0x82, 0x3c, 0x1c, 0xbc, 0x56, 0x52, 0x22, 0x3e,
  0xc0, 0x3a, 0x86, 0x3d, 0xf3, 0x91, 0xc1, 0x3c, 0xaa, 0x3e, 0x9c, 0xba,
  0x3d, 0xf1, 0x82, 0x3e, 0xee, 0x65, 0x2b, 0xbe, 0xe8, 0xba, 0x69, 0x3e,
  0x41, 0xc8, 0x4e, 0xbe, 0x96, 0x1e, 0x8e, 0xbe, 0x0c, 0xf6, 0x7b, 0x3e,
  0x9d, 0xb9, 0xb6, 0x3d, 0xe3, 0x18, 0xd7, 0xbd, 0xeb, 0x98, 0x62, 0xbe,
  0xd8, 0x40, 0x63, 0xbe, 0x3f, 0x4c, 0x5a, 0x3e, 0x53, 0x5e, 0x58, 0xbd,
  0x42, 0xf5, 0xf0, 0xbd, 0x8f, 0xfc, 0x22, 0x3e, 0xcc, 0x5c, 0x84, 0x3e,
  0x9c, 0x50, 0xc5, 0x3d, 0x49, 0x95, 0x6a, 0xbe, 0x04, 0x02, 0x60, 0x3e,
  0x6c, 0x3e, 0xbe, 0x3d, 0xab, 0xe6, 0x37, 0x3e, 0x75, 0xb8, 0x29, 0x3d,
  0x52, 0xb0, 0x04, 0xbe, 0xe9, 0xfd, 0x9f, 0x3c, 0x10, 0xc3, 0xd0, 0xbc,
  0x20, 0x1a, 0x39, 0x3e, 0xb1, 0xb2, 0x7a, 0xbe, 0xec, 0x81, 0xa9, 0x3d,
  0x52, 0x7e, 0x79, 0xbe, 0x52, 0xf7, 0xbe, 0x3c, 0xe6, 0xc0, 0x1b, 0x3e,
  0xaa, 0x8b, 0xb0, 0x3d, 0x23, 0xde, 0x3d, 0xbe, 0x60, 0x0d, 0x21, 0xbe,
  0x2b, 0xc5, 0x7d, 0x3d, 0xca, 0x77, 0x8c, 0x3e, 0xc6, 0x60, 0x63, 0x3e,
  0xb5, 0x1a, 0x47, 0xbe, 0xc8, 0xd4, 0x1f, 0xbd, 0xa1, 0x2a, 0x05, 0xbe,
  0x8f, 0x91, 0xc5, 0xbd, 0xe2, 0xab, 0x2f, 0x3e, 0x5c, 0x1a, 0x79, 0x3e,
  0x48, 0x89, 0x97, 0xbd, 0x22, 0x25, 0x1d, 0x3e, 0x76, 0x7b, 0x10, 0x3e,
  0x9c, 0xad, 0x41, 0x3d, 0x29, 0x00, 0x7a, 0xbc, 0x8d, 0xeb, 0x3b, 0xbe,
  0x5d, 0xc5, 0x7f, 0xbe, 0x3e, 0x8a, 0x59, 0x3e, 0xfe, 0x6a, 0x89, 0x3e,
  0xee, 0xfe, 0xff, 0xff, 0x2c, 0x00, 0x00, 0x00, 0x04, 0x00, 0x00, 0x00,
  0x08, 0x00, 0x00, 0x00, 0x2c, 0x00, 0x00, 0x00, 0x17, 0x00, 0x00, 0x00,
  0x73, 0x65, 0x71, 0x75, 0x65, 0x6e, 0x74, 0x69, 0x61, 0x6c, 0x2f, 0x64,
  0x65, 0x6e, 0x73, 0x65, 0x2f, 0x4d, 0x61, 0x74, 0x4d, 0x75, 0x6c, 0x00,
  0x02, 0x00, 0x00, 0x00, 0x13, 0x00, 0x00, 0x00, 0x28, 0x00, 0x00, 0x00,
  0x70, 0xfe, 0xff, 0xff, 0x8e, 0xff, 0xff, 0xff, 0x04, 0x00, 0x00, 0x00,
  0x08, 0x00, 0x00, 0x00, 0x22, 0x67, 0x3b, 0xbc, 0x14, 0x67, 0x3b, 0x3c,
  0x42, 0xff, 0xff, 0xff, 0x48, 0x00, 0x00, 0x00, 0x03, 0x00, 0x00, 0x00,
  0x08, 0x00, 0x00, 0x00, 0x48, 0x00, 0x00, 0x00, 0x32, 0x00, 0x00, 0x00,
  0x73, 0x65, 0x71, 0x75, 0x65, 0x6e, 0x74, 0x69, 0x61, 0x6c, 0x2f, 0x64,
  0x65, 0x6e, 0x73, 0x65, 0x5f, 0x31, 0x2f, 0x42, 0x69, 0x61, 0x73, 0x41,
  0x64, 0x64, 0x2f, 0x52, 0x65, 0x61, 0x64, 0x56, 0x61, 0x72, 0x69, 0x61,
  0x62, 0x6c, 0x65, 0x4f, 0x70, 0x2f, 0x72, 0x65, 0x73, 0x6f, 0x75, 0x72,
  0x63, 0x65, 0x00, 0x00, 0x01, 0x00, 0x00, 0x00, 0x02, 0x00, 0x00, 0x00,
  0x04, 0x00, 0x06, 0x00, 0x04, 0x00, 0x00, 0x00, 0x00, 0x00, 0x06, 0x00,
  0x08, 0x00, 0x04, 0x00, 0x06, 0x00, 0x00, 0x00, 0x04, 0x00, 0x00, 0x00,
  0x4c, 0x00, 0x00, 0x00, 0x95, 0xf4, 0x8f, 0x3d, 0xc6, 0x26, 0xca, 0x3d,
  0x3f, 0xdd, 0xc6, 0x3d, 0x1c, 0x41, 0x17, 0xbd, 0x98, 0xab, 0x6a, 0xbc,
  0x09, 0xb0, 0x5f, 0x3c, 0x91, 0x0f, 0x1a, 0x3e, 0x2a, 0x96, 0x2f, 0xbd,
  0xbc, 0x56, 0x0a, 0xbe, 0x9b, 0x78, 0xd5, 0x3c, 0xeb, 0x0c, 0x42, 0x3d,
  0x2d, 0xe8, 0xac, 0x3d, 0x4c, 0x23, 0x58, 0xbd, 0xcf, 0x8d, 0x02, 0x3e,
  0x3f, 0xad, 0x39, 0x3d, 0xbc, 0xde, 0x12, 0x3c, 0x95, 0xa2, 0xfe, 0xbd,
  0x0a, 0x37, 0x24, 0xbe, 0x7e, 0x71, 0x14, 0xbd, 0x00, 0x00, 0x0e, 0x00,
  0x14, 0x00, 0x04, 0x00, 0x00, 0x00, 0x08, 0x00, 0x0c, 0x00, 0x10, 0x00,
  0x0e, 0x00, 0x00, 0x00, 0x48, 0x00, 0x00, 0x00, 0x02, 0x00, 0x00, 0x00,
  0x08, 0x00, 0x00, 0x00, 0x44, 0x00, 0x00, 0x00, 0x30, 0x00, 0x00, 0x00,
  0x73, 0x65, 0x71, 0x75, 0x65, 0x6e, 0x74, 0x69, 0x61, 0x6c, 0x2f, 0x64,
  0x65, 0x6e, 0x73, 0x65, 0x2f, 0x42, 0x69, 0x61, 0x73, 0x41, 0x64, 0x64,
  0x2f, 0x52, 0x65, 0x61, 0x64, 0x56, 0x61, 0x72, 0x69, 0x61, 0x62, 0x6c,
  0x65, 0x4f, 0x70, 0x2f, 0x72, 0x65, 0x73, 0x6f, 0x75, 0x72, 0x63, 0x65,
  0x00, 0x00, 0x00, 0x00, 0x01, 0x00, 0x00, 0x00, 0x13, 0x00, 0x00, 0x00,
  0xa8, 0xff, 0xff, 0xff, 0x14, 0x00, 0x18, 0x00, 0x04, 0x00, 0x00, 0x00,
  0x08, 0x00, 0x0c, 0x00, 0x10, 0x00, 0x00, 0x00, 0x00, 0x00, 0x14, 0x00,
  0x14, 0x00, 0x00, 0x00, 0x2c, 0x00, 0x00, 0x00, 0x01, 0x00, 0x00, 0x00,
  0x18, 0x00, 0x00, 0x00, 0x2c, 0x00, 0x00, 0x00, 0x04, 0x00, 0x00, 0x00,
  0x02, 0x00, 0x00, 0x00, 0xff, 0xff, 0xff, 0xff, 0x28, 0x00, 0x00, 0x00,
  0x07, 0x00, 0x00, 0x00, 0x69, 0x6e, 0x70, 0x75, 0x74, 0x5f, 0x31, 0x00,
  0x02, 0x00, 0x00, 0x00, 0x01, 0x00, 0x00, 0x00, 0x28, 0x00, 0x00, 0x00,
  0xfc, 0xff, 0xff, 0xff, 0x04, 0x00, 0x04, 0x00, 0x04, 0x00, 0x00, 0x00
};
const int g_model_len = 4656;
